{
  "0": "\u0000",
  "1": "\u0001",
  "2": "\u0002",
  "3": "\u0003",
  "4": "\u0004",
  "5": "\u0005",
  "6": "\u0006",
  "7": "\u0007",
  "8": "\b",
  "9": "\t",
  "10": "\n",
  "11": "\u000b",
  "12": "\f",
  "13": "\r",
  "14": "\u000e",
  "15": "\u000f",
  "16": "\u0010",
  "17": "\u0011",
  "18": "\u0012",
  "19": "\u0013",
  "20": "\u0014",
  "21": "\u0015",
  "22": "\u0016",
  "23": "\u0017",
  "24": "\u0018",
  "25": "\u0019",
  "26": "\u001a",
  "27": "\u001b",
  "28": "\u001c",
  "29": "\u001d",
  "30": "\u001e",
  "31": "\u001f",
  "32": " ",
  "33": "!",
  "34": "\"",
  "35": "#",
  "36": "$",
  "37": "%",
  "38": "&",
  "39": "'",
  "40": "(",
  "41": ")",
  "42": "*",
  "43": "+",
  "44": ",",
  "45": "-",
  "46": ".",
  "47": "/",
  "48": "0",
  "49": "1",
  "50": "2",
  "51": "3",
  "52": "4",
  "53": "5",
  "54": "6",
  "55": "7",
  "56": "8",
  "57": "9",
  "58": ":",
  "59": ";",
  "60": "<",
  "61": "=",
  "62": ">",
  "63": "?",
  "64": "@",
  "65": "A",
  "66": "B",
  "67": "C",
  "68": "D",
  "69": "E",
  "70": "F",
  "71": "G",
  "72": "H",
  "73": "I",
  "74": "J",
  "75": "K",
  "76": "L",
  "77": "M",
  "78": "N",
  "79": "O",
  "80": "P",
  "81": "Q",
  "82": "R",
  "83": "S",
  "84": "T",
  "85": "U",
  "86": "V",
  "87": "W",
  "88": "X",
  "89": "Y",
  "90": "Z",
  "91": "[",
  "92": "\\",
  "93": "]",
  "94": "^",
  "95": "_",
  "96": "`",
  "97": "a",
  "98": "b",
  "99": "c",
  "100": "d",
  "101": "e",
  "102": "f",
  "103": "g",
  "104": "h",
  "105": "i",
  "106": "j",
  "107": "k",
  "108": "l",
  "109": "m",
  "110": "n",
  "111": "o",
  "112": "p",
  "113": "q",
  "114": "r",
  "115": "s",
  "116": "t",
  "117": "u",
  "118": "v",
  "119": "w",
  "120": "x",
  "121": "y",
  "122": "z",
  "123": "{",
  "124": "|",
  "125": "}",
  "126": "~",
  "127": "\u007f",
  "128": "",
  "129": "",
  "130": "",
  "131": "",
  "132": "",
  "133": "",
  "134": "",
  "135": "",
  "136": "",
  "137": "",
  "138": "",
  "139": "",
  "140": "",
  "141": "",
  "142": "",
  "143": "",
  "144": "",
  "145": "",
  "146": "",
  "147": "",
  "148": "",
  "149": "",
  "150": "",
  "151": "",
  "152": "",
  "153": "",
  "154": "",
  "155": "",
  "156": "",
  "157": "",
  "158": "",
  "159": "",
  "160": "",
  "161": "",
  "162": "",
  "163": "",
  "164": "",
  "165": "",
  "166": "",
  "167": "",
  "168": "",
  "169": "",
  "170": "",
  "171": "",
  "172": "",
  "173": "",
  "174": "",
  "175": "",
  "176": "",
  "177": "",
  "178": "",
  "179": "",
  "180": "",
  "181": "",
  "182": "",
  "183": "",
  "184": "",
  "185": "",
  "186": "",
  "187": "",
  "188": "",
  "189": "",
  "190": "",
  "191": "",
  "192": "",
  "193": "",
  "194": "",
  "195": "",
  "196": "",
  "197": "",
  "198": "",
  "199": "",
  "200": "",
  "201": "",
  "202": "",
  "203": "",
  "204": "",
  "205": "",
  "206": "",
  "207": "",
  "208": "",
  "209": "",
  "210": "",
  "211": "",
  "212": "",
  "213": "",
  "214": "",
  "215": "",
  "216": "",
  "217": "",
  "218": "",
  "219": "",
  "220": "",
  "221": "",
  "222": "",
  "223": "",
  "224": "",
  "225": "",
  "226": "",
  "227": "",
  "228": "",
  "229": "",
  "230": "",
  "231": "",
  "232": "",
  "233": "",
  "234": "",
  "235": "",
  "236": "",
  "237": "",
  "238": "",
  "239": "",
  "240": "",
  "241": "",
  "242": "",
  "243": "",
  "244": "",
  "245": "",
  "246": "",
  "247": "",
  "248": "",
  "249": "",
  "250": "",
  "251": "",
  "252": "",
  "253": "",
  "254": "",
  "255": "",
  "256": " t",
  "257": "he",
  "258": " a",
  "259": " s",
  "260": "nd",
  "261": " w",
  "262": " the",
  "263": "ed",
  "264": " b",
  "265": " and",
  "266": " to",
  "267": " h",
  "268": " f",
  "269": "in",
  "270": " T",
  "271": "it",
  "272": "re",
  "273": " wa",
  "274": "ou",
  "275": " l",
  "276": " p",
  "277": " d",
  "278": " c",
  "279": " m",
  "280": "om",
  "281": "ay",
  "282": " The",
  "283": "er",
  "284": "ar",
  "285": "is",
  "286": " was",
  "287": " he",
  "288": ".\n",
  "289": "id",
  "290": " o",
  "291": " sa",
  "292": "ll",
  "293": " n",
  "294": "ing",
  "295": " ha",
  "296": "im",
  "297": " g",
  "298": "an",
  "299": "at",
  "300": "en",
  "301": "or",
  "302": "ot",
  "303": "le",
  "304": " H",
  "305": " S",
  "306": " They",
  "307": "end",
  "308": "on",
  "309": " th",
  "310": " it",
  "311": "ir",
  "312": "am",
  "313": " He",
  "314": "et",
  "315": " \"",
  "316": "il",
  "317": "ig",
  "318": " in",
  "319": " pl",
  "320": " said",
  "321": " y",
  "322": " wit",
  "323": " with",
  "324": " play",
  "325": "ri",
  "326": "ow",
  "327": "es",
  "328": "ex",
  "329": "ver",
  "330": " r",
  "331": " u",
  "332": " L",
  "333": " day",
  "334": "On",
  "335": "ck",
  "336": "ut",
  "337": "pp",
  "338": " his",
  "339": " you",
  "340": " st",
  "341": "ft",
  "342": " I",
  "343": " be",
  "344": "oo",
  "345": " li",
  "346": "ked",
  "347": "ld",
  "348": " her",
  "349": "nt",
  "350": " big",
  "351": "un",
  "352": "ily",
  "353": "ce",
  "354": " on",
  "355": " of",
  "356": " they",
  "357": "ke",
  "358": "her",
  "359": " ba",
  "360": "ext",
  "361": "oft",
  "362": " Tim",
  "363": " B",
  "364": " we",
  "365": "ent",
  "366": " had",
  "367": "st",
  "368": "very",
  "369": " happ",
  "370": " do",
  "371": " fri",
  "372": " friend",
  "373": "<|",
  "374": "endoft",
  "375": "endoftext",
  "376": "|>",
  "377": "|>\n",
  "378": " mom",
  "379": " She",
  "380": " saw",
  "381": "ve",
  "382": "'s",
  "383": " want",
  "384": " M",
  "385": " up",
  "386": "\"\n",
  "387": " not",
  "388": " sh",
  "389": " k",
  "390": " that",
  "391": "itt",
  "392": " Tom",
  "393": " for",
  "394": "ittle",
  "395": " Lily",
  "396": " little",
  "397": "se",
  "398": "One",
  "399": "The",
  "400": " sm",
  "401": "ad",
  "402": "ound",
  "403": " bo",
  "404": " so",
  "405": "ch",
  "406": " tim",
  "407": " time",
  "408": " e",
  "409": "out",
  "410": " nam",
  "411": " happy",
  "412": "ug",
  "413": "el",
  "414": " went",
  "415": " named",
  "416": " very",
  "417": " wh",
  "418": " ne",
  "419": " is",
  "420": "ome",
  "421": " an",
  "422": "lp",
  "423": " were",
  "424": "ould",
  "425": " help",
  "426": " there",
  "427": " she",
  "428": " too",
  "429": "ht",
  "430": "ved",
  "431": "all",
  "432": "ry",
  "433": "ide",
  "434": " lo",
  "435": " but",
  "436": " bir",
  "437": " wanted",
  "438": " bird",
  "439": " fun",
  "440": "ue",
  "441": "ame",
  "442": "al",
  "443": " tre",
  "444": " friends",
  "445": " j",
  "446": " all",
  "447": " man",
  "448": " It",
  "449": "Once",
  "450": " at",
  "451": "ter",
  "452": " as",
  "453": "ill",
  "454": "ark",
  "455": " upon",
  "456": " can",
  "457": "get",
  "458": " sc",
  "459": " did",
  "460": " loo",
  "461": "gether",
  "462": "ore",
  "463": "ur",
  "464": " played",
  "465": " together",
  "466": "!\"",
  "467": "ec",
  "468": "ly",
  "469": " out",
  "470": " fi",
  "471": "ax",
  "472": "ain",
  "473": " re",
  "474": "'t",
  "475": " go",
  "476": " ma",
  "477": " boy",
  "478": "ob",
  "479": " le",
  "480": ".\"\n",
  "481": " car",
  "482": " him",
  "483": " dog",
  "484": "uc",
  "485": " A",
  "486": "ard",
  "487": " park",
  "488": " are",
  "489": " their",
  "490": "um",
  "491": "ucy",
  "492": " tree",
  "493": " kn",
  "494": "ite",
  "495": " found",
  "496": "ood",
  "497": " fr",
  "498": " scar",
  "499": "hed",
  "500": "way",
  "501": "my",
  "502": " Max",
  "503": "as",
  "504": " se",
  "505": " back",
  "506": " them",
  "507": "ted",
  "508": " toy",
  "509": " Lucy",
  "510": "iled",
  "511": " like",
  "512": "ul",
  "513": "hen",
  "514": " came",
  "515": "are",
  "516": "hing",
  "517": " pi",
  "518": " gir",
  "519": " girl",
  "520": " la",
  "521": ",\"",
  "522": ".\"",
  "523": " sad",
  "524": " could",
  "525": "side",
  "526": " ball",
  "527": " ho",
  "528": " smiled",
  "529": " ro",
  "530": " br",
  "531": "oug",
  "532": " sp",
  "533": " sw",
  "534": " no",
  "535": " Sue",
  "536": " Ben",
  "537": " loved",
  "538": " me",
  "539": " have",
  "540": " cl",
  "541": "ful",
  "542": " small",
  "543": "ell",
  "544": "You",
  "545": "one",
  "546": "ade",
  "547": " star",
  "548": "elt",
  "549": "ight",
  "550": "round",
  "551": " looked",
  "552": " po",
  "553": "own",
  "554": " ot",
  "555": "|>\n\n",
  "556": "?\"",
  "557": " Sp",
  "558": " Spot",
  "559": "omet",
  "560": " other",
  "561": " liked",
  "562": " wor",
  "563": " W",
  "564": " made",
  "565": " But",
  "566": " Bob",
  "567": " felt",
  "568": " sun",
  "569": " \n",
  "570": " fa",
  "571": " will",
  "572": " bec",
  "573": "ought",
  "574": "ried",
  "575": "ure",
  "576": " took",
  "577": " cat",
  "578": " somet",
  "579": " see",
  "580": " asked",
  "581": " ta",
  "582": "ia",
  "583": " scared",
  "584": " water",
  "585": " say",
  "586": " down",
  "587": "uck",
  "588": " al",
  "589": " fe",
  "590": "ff",
  "591": " One",
  "592": " home",
  "593": " some",
  "594": "ty",
  "595": "ened",
  "596": " away",
  "597": " ran",
  "598": " ag",
  "599": "!\"\n",
  "600": " thing",
  "601": " started",
  "602": "ice",
  "603": " good",
  "604": "Tom",
  "605": " would",
  "606": "ave",
  "607": " thought",
  "608": " lived",
  "609": " playing",
  "610": " mu",
  "611": "by",
  "612": " who",
  "613": " from",
  "614": "ong",
  "615": " my",
  "616": "ouse",
  "617": " laug",
  "618": " find",
  "619": "pped",
  "620": " around",
  "621": "ish",
  "622": " lot",
  "623": " ex",
  "624": " something",
  "625": " Sam",
  "626": "ra",
  "627": "est",
  "628": " J",
  "629": " then",
  "630": "ump",
  "631": " sn",
  "632": "ny",
  "633": " wal",
  "634": "king",
  "635": " when",
  "636": " fl",
  "637": " F",
  "638": " your",
  "639": "ned",
  "640": "ull",
  "641": " co",
  "642": "fter",
  "643": " You",
  "644": "oud",
  "645": "ret",
  "646": " ab",
  "647": " hug",
  "648": " house",
  "649": " kne",
  "650": "op",
  "651": "ep",
  "652": "ile",
  "653": " new",
  "654": "ind",
  "655": "ank",
  "656": "They",
  "657": " got",
  "658": " pe",
  "659": " fish",
  "660": "ook",
  "661": " this",
  "662": "ge",
  "663": "ust",
  "664": " again",
  "665": " lear",
  "666": "ate",
  "667": " bug",
  "668": " says",
  "669": "Th",
  "670": " int",
  "671": " gre",
  "672": " Mom",
  "673": " tr",
  "674": " get",
  "675": "ic",
  "676": " care",
  "677": " ch",
  "678": " make",
  "679": " put",
  "680": "qu",
  "681": " box",
  "682": " things",
  "683": "ie",
  "684": " pick",
  "685": "ers",
  "686": " outside",
  "687": "?\"\n",
  "688": " any",
  "689": " knew",
  "690": " swing",
  "691": " E",
  "692": " about",
  "693": " know",
  "694": " what",
  "695": "Tim",
  "696": " dec",
  "697": " told",
  "698": " laughed",
  "699": " bl",
  "700": " sl",
  "701": "ist",
  "702": " many",
  "703": " more",
  "704": " ra",
  "705": " feel",
  "706": "ach",
  "707": " Mia",
  "708": " pr",
  "709": " pret",
  "710": " into",
  "711": " look",
  "712": " ke",
  "713": " bot",
  "714": " tried",
  "715": " best",
  "716": " stor",
  "717": " white",
  "718": " show",
  "719": " need",
  "720": " un",
  "721": "dd",
  "722": "ous",
  "723": " much",
  "724": " lion",
  "725": " near",
  "726": "Lily",
  "727": "ink",
  "728": " toys",
  "729": " take",
  "730": "ided",
  "731": " inside",
  "732": "But",
  "733": " became",
  "734": " don",
  "735": " red",
  "736": " far",
  "737": " v",
  "738": " decided",
  "739": " So",
  "740": "ged",
  "741": "ving",
  "742": "orry",
  "743": " learned",
  "744": " pu",
  "745": "\u00e2",
  "746": "",
  "747": "\u20ac",
  "748": " shin",
  "749": " every",
  "750": "ited",
  "751": " or",
  "752": " both",
  "753": "ze",
  "754": " hand",
  "755": "other",
  "756": " snow",
  "757": " ca",
  "758": " farm",
  "759": "|>\n\n\n",
  "760": "ick",
  "761": "use",
  "762": "dy",
  "763": " sorry",
  "764": " dr",
  "765": " list",
  "766": "lu",
  "767": "bb",
  "768": " C",
  "769": " pretty",
  "770": " lots",
  "771": " alway",
  "772": " always",
  "773": "lor",
  "774": " ang",
  "775": "lew",
  "776": "ive",
  "777": "ct",
  "778": "og",
  "779": "oom",
  "780": "Wh",
  "781": " tur",
  "782": " never",
  "783": " exc",
  "784": " boat",
  "785": " loud",
  "786": "ace",
  "787": " after",
  "788": " And",
  "789": " didn",
  "790": "Yes",
  "791": "ma",
  "792": "He",
  "793": "our",
  "794": " fast",
  "795": " happened",
  "796": " nice",
  "797": " flow",
  "798": " His",
  "799": "here",
  "800": " just",
  "801": " try",
  "802": " gra",
  "803": "ess",
  "804": "ise",
  "805": " wat",
  "806": "ount",
  "807": " D",
  "808": " us",
  "809": " gave",
  "810": "man",
  "811": " fly",
  "812": "luff",
  "813": "luffy",
  "814": "ble",
  "815": " shiny",
  "816": " sur",
  "817": " one",
  "818": " color",
  "819": " tw",
  "820": "ched",
  "821": " beca",
  "822": " because",
  "823": " thre",
  "824": "nder",
  "825": "It",
  "826": " Every",
  "827": "ves",
  "828": " each",
  "829": "iff",
  "830": " bear",
  "831": "ap",
  "832": "ass",
  "833": " Fluffy",
  "834": " rock",
  "835": "ase",
  "836": " bu",
  "837": " how",
  "838": " green",
  "839": "etter",
  "840": " Th",
  "841": " eat",
  "842": " i",
  "843": " if",
  "844": " hole",
  "845": " str",
  "846": " flew",
  "847": " gard",
  "848": " garden",
  "849": " than",
  "850": "kes",
  "851": "opped",
  "852": " kind",
  "853": " baby",
  "854": " share",
  "855": " room",
  "856": "Then",
  "857": " better",
  "858": " picked",
  "859": " excited",
  "860": " lost",
  "861": "ock",
  "862": " dan",
  "863": " slide",
  "864": "kay",
  "865": " fix",
  "866": " R",
  "867": "ant",
  "868": "ather",
  "869": " kid",
  "870": " gl",
  "871": " op",
  "872": " walked",
  "873": " com",
  "874": " frog",
  "875": " love",
  "876": "ss",
  "877": "ised",
  "878": " end",
  "879": " flowers",
  "880": " Wh",
  "881": " hugged",
  "882": "ion",
  "883": " right",
  "884": " heard",
  "885": " gr",
  "886": " mo",
  "887": " run",
  "888": "ger",
  "889": "ack",
  "890": " kids",
  "891": " door",
  "892": " war",
  "893": "oh",
  "894": "ohn",
  "895": "Let",
  "896": " hat",
  "897": " scarf",
  "898": "nn",
  "899": "nna",
  "900": " sk",
  "901": "eo",
  "902": " truck",
  "903": " Z",
  "904": "pl",
  "905": "ally",
  "906": "ner",
  "907": " surp",
  "908": " surpr",
  "909": " dad",
  "910": " ev",
  "911": " jump",
  "912": "Thank",
  "913": " ide",
  "914": " idea",
  "915": " bro",
  "916": " careful",
  "917": "ool",
  "918": "sh",
  "919": " blue",
  "920": "ppy",
  "921": " en",
  "922": " doll",
  "923": " hig",
  "924": " anim",
  "925": " animal",
  "926": " animals",
  "927": " hur",
  "928": "pec",
  "929": " happily",
  "930": " dre",
  "931": "oll",
  "932": " clo",
  "933": "Mom",
  "934": " We",
  "935": " still",
  "936": " soft",
  "937": "ear",
  "938": " has",
  "939": "ning",
  "940": " story",
  "941": "eddy",
  "942": "ea",
  "943": " squ",
  "944": " kite",
  "945": " spec",
  "946": " speci",
  "947": " special",
  "948": "Oll",
  "949": "Ollie",
  "950": " fam",
  "951": " unex",
  "952": " unexpec",
  "953": " unexpected",
  "954": "rom",
  "955": "ange",
  "956": " having",
  "957": " Then",
  "958": " nodd",
  "959": " nodded",
  "960": "ath",
  "961": " hard",
  "962": " let",
  "963": " ever",
  "964": " mag",
  "965": " under",
  "966": "ort",
  "967": " yell",
  "968": " bad",
  "969": " stopped",
  "970": " bag",
  "971": "ered",
  "972": " warm",
  "973": " snowman",
  "974": "oy",
  "975": "ine",
  "976": " high",
  "977": " sis",
  "978": " pond",
  "979": " Leo",
  "980": " bun",
  "981": " bunny",
  "982": "ountain",
  "983": " store",
  "984": " over",
  "985": " cu",
  "986": " even",
  "987": " met",
  "988": " gent",
  "989": "hes",
  "990": "day",
  "991": " soon",
  "992": " next",
  "993": " Her",
  "994": " two",
  "995": "der",
  "996": "Look",
  "997": " thanked",
  "998": " ask",
  "999": "lease",
  "1000": " Amy",
  "1001": " fore",
  "1002": " work",
  "1003": "oral",
  "1004": "'m",
  "1005": " che",
  "1006": " yard",
  "1007": " ad",
  "1008": "gan",
  "1009": " als",
  "1010": " also",
  "1011": "ash",
  "1012": " jam",
  "1013": " pear",
  "1014": " dis",
  "1015": " thr",
  "1016": "So",
  "1017": " proud",
  "1018": " call",
  "1019": " Ollie",
  "1020": " family",
  "1021": " going",
  "1022": " others",
  "1023": " angry",
  "1024": " cried",
  "1025": " brave",
  "1026": " great",
  "1027": "thing",
  "1028": " old",
  "1029": " cle",
  "1030": " clean",
  "1031": "eet",
  "1032": " pow",
  "1033": " colors",
  "1034": " worry",
  "1035": "Can",
  "1036": " smile",
  "1037": " cry",
  "1038": " okay",
  "1039": " by",
  "1040": "kin",
  "1041": " bre",
  "1042": " long",
  "1043": " helped",
  "1044": "We",
  "1045": " threw",
  "1046": "John",
  "1047": "ired",
  "1048": " come",
  "1049": "lf",
  "1050": " sky",
  "1051": " sister",
  "1052": "rel",
  "1053": " plan",
  "1054": " farmer",
  "1055": " par",
  "1056": " watch",
  "1057": " bea",
  "1058": " beaut",
  "1059": " beauti",
  "1060": " beautiful",
  "1061": " swim",
  "1062": " din",
  "1063": " dinner",
  "1064": " surprised",
  "1065": "udd",
  "1066": "udden",
  "1067": " ground",
  "1068": " kep",
  "1069": " kept",
  "1070": " im",
  "1071": " roar",
  "1072": " place",
  "1073": " clos",
  "1074": " shar",
  "1075": " fav",
  "1076": " favor",
  "1077": " favorite",
  "1078": " song",
  "1079": "That",
  "1080": "ady",
  "1081": "When",
  "1082": " worked",
  "1083": "ting",
  "1084": " turn",
  "1085": " head",
  "1086": " hands",
  "1087": " forest",
  "1088": " ate",
  "1089": " give",
  "1090": " moral",
  "1091": " glad",
  "1092": "ummy",
  "1093": " think",
  "1094": " listened",
  "1095": " diff",
  "1096": "ere",
  "1097": "me",
  "1098": " listen",
  "1099": " adv",
  "1100": " rabb",
  "1101": " rabbit",
  "1102": " began",
  "1103": "No",
  "1104": " Anna",
  "1105": "asure",
  "1106": " anym",
  "1107": " anymore",
  "1108": " hold",
  "1109": " mill",
  "1110": " Let",
  "1111": "zz",
  "1112": "lla",
  "1113": " ama",
  "1114": " amaz",
  "1115": " When",
  "1116": " called",
  "1117": " showed",
  "1118": "!\n",
  "1119": " duck",
  "1120": "uddenly",
  "1121": "ag",
  "1122": " In",
  "1123": "fe",
  "1124": "bye",
  "1125": " maze",
  "1126": " way",
  "1127": "wl",
  "1128": " pa",
  "1129": " hurt",
  "1130": " feeling",
  "1131": " walk",
  "1132": " please",
  "1133": "'re",
  "1134": " pump",
  "1135": " pumpkin",
  "1136": " strong",
  "1137": " keep",
  "1138": " tow",
  "1139": " grand",
  "1140": " stay",
  "1141": " teddy",
  "1142": "mb",
  "1143": " qu",
  "1144": " tired",
  "1145": " shell",
  "1146": " our",
  "1147": " trees",
  "1148": "th",
  "1149": " pict",
  "1150": " picture",
  "1151": " stop",
  "1152": " pir",
  "1153": " rain",
  "1154": " whe",
  "1155": " king",
  "1156": "Max",
  "1157": " tall",
  "1158": " squir",
  "1159": " squirrel",
  "1160": " pig",
  "1161": " party",
  "1162": " hor",
  "1163": "zzle",
  "1164": " mon",
  "1165": " fountain",
  "1166": "ough",
  "1167": " Can",
  "1168": " ri",
  "1169": "Hi",
  "1170": " curi",
  "1171": " curious",
  "1172": "where",
  "1173": " dress",
  "1174": " real",
  "1175": "ign",
  "1176": " its",
  "1177": " gentle",
  "1178": " safe",
  "1179": "imes",
  "1180": "After",
  "1181": " should",
  "1182": "Don",
  "1183": " gu",
  "1184": "ild",
  "1185": " Do",
  "1186": " while",
  "1187": " fell",
  "1188": " hot",
  "1189": " lea",
  "1190": "ara",
  "1191": " post",
  "1192": " off",
  "1193": " de",
  "1194": " pull",
  "1195": "and",
  "1196": "ree",
  "1197": "\"O",
  "1198": " unt",
  "1199": " differe",
  "1200": " different",
  "1201": " reme",
  "1202": " rememb",
  "1203": " advent",
  "1204": " adventure",
  "1205": "As",
  "1206": " angel",
  "1207": " hopped",
  "1208": " sunny",
  "1209": " From",
  "1210": " treasure",
  "1211": " Bea",
  "1212": " Beaver",
  "1213": "ught",
  "1214": " yummy",
  "1215": " drain",
  "1216": " P",
  "1217": "be",
  "1218": " peop",
  "1219": " people",
  "1220": "pet",
  "1221": "olly",
  "1222": "reed",
  "1223": "stle",
  "1224": " bull",
  "1225": " horse",
  "1226": " puzzle",
  "1227": " ju",
  "1228": " juice",
  "1229": " Zoom",
  "1230": " Ella",
  "1231": "oe",
  "1232": " expl",
  "1233": " \u00e2",
  "1234": "Wow",
  "1235": "\u20ac",
  "1236": "\u20ac\u009d",
  "1237": " catch",
  "1238": " turned",
  "1239": " friendly",
  "1240": " birds",
  "1241": " What",
  "1242": " orange",
  "1243": "At",
  "1244": " jumped",
  "1245": " tal",
  "1246": " hop",
  "1247": " closer",
  "1248": " rea",
  "1249": " pain",
  "1250": " block",
  "1251": " anything",
  "1252": "uch",
  "1253": " There",
  "1254": " N",
  "1255": " wood",
  "1256": " clim",
  "1257": " climb",
  "1258": " am",
  "1259": "ken",
  "1260": " magic",
  "1261": " cool",
  "1262": "come",
  "1263": " sound",
  "1264": " imp",
  "1265": "int",
  "1266": " per",
  "1267": " job",
  "1268": " deep",
  "1269": " sle",
  "1270": " sleep",
  "1271": " until",
  "1272": " fo",
  "1273": " Everyone",
  "1274": " ste",
  "1275": " cut",
  "1276": "ats",
  "1277": "ies",
  "1278": " land",
  "1279": "Bob",
  "1280": " another",
  "1281": "bo",
  "1282": "box",
  "1283": " enj",
  "1284": " enjoy",
  "1285": "age",
  "1286": " fie",
  "1287": " field",
  "1288": " stu",
  "1289": " wr",
  "1290": " rag",
  "1291": " cr",
  "1292": " opened",
  "1293": " carpet",
  "1294": " des",
  "1295": " agreed",
  "1296": " chur",
  "1297": " church",
  "1298": "ippy",
  "1299": " witch",
  "1300": " castle",
  "1301": " fil",
  "1302": " film",
  "1303": " explore",
  "1304": " amazing",
  "1305": " walking",
  "1306": "\u20ac",
  "1307": "\u20ac\u0153",
  "1308": " forg",
  "1309": " now",
  "1310": "irit",
  "1311": " fall",
  "1312": "ced",
  "1313": " helping",
  "1314": " goodbye",
  "1315": " reached",
  "1316": " stick",
  "1317": " ey",
  "1318": "irst",
  "1319": "lev",
  "1320": " watched",
  "1321": " needed",
  "1322": " broke",
  "1323": " fin",
  "1324": "ished",
  "1325": " food",
  "1326": " broken",
  "1327": " Rex",
  "1328": " wel",
  "1329": " welcome",
  "1330": " wind",
  "1331": " import",
  "1332": " important",
  "1333": " trying",
  "1334": " mint",
  "1335": " here",
  "1336": " face",
  "1337": " shout",
  "1338": " open",
  "1339": "inging",
  "1340": "atch",
  "1341": " Dad",
  "1342": " sand",
  "1343": " held",
  "1344": " tell",
  "1345": "lder",
  "1346": " win",
  "1347": " making",
  "1348": "emy",
  "1349": "rue",
  "1350": " carr",
  "1351": " carrot",
  "1352": " sat",
  "1353": " rest",
  "1354": "ect",
  "1355": "us",
  "1356": "hew",
  "1357": " mess",
  "1358": " wheat",
  "1359": " where",
  "1360": "aught",
  "1361": " power",
  "1362": "aybe",
  "1363": " town",
  "1364": "Why",
  "1365": "co",
  "1366": " leather",
  "1367": " trump",
  "1368": " trumpet",
  "1369": " planet",
  "1370": " clot",
  "1371": " han",
  "1372": " hanger",
  "1373": " Timmy",
  "1374": " TV",
  "1375": " shark",
  "1376": " blocks",
  "1377": " through",
  "1378": " buy",
  "1379": " All",
  "1380": " couldn",
  "1381": " bel",
  "1382": " stone",
  "1383": " mean",
  "1384": " bef",
  "1385": " before",
  "1386": "ation",
  "1387": " This",
  "1388": " spirit",
  "1389": "oin",
  "1390": "Sam",
  "1391": " sometimes",
  "1392": " beh",
  "1393": "ung",
  "1394": " use",
  "1395": " dir",
  "1396": " dirty",
  "1397": "Lucy",
  "1398": " three",
  "1399": " ready",
  "1400": " sho",
  "1401": " top",
  "1402": "Hell",
  "1403": "Hello",
  "1404": "pa",
  "1405": "oney",
  "1406": " likes",
  "1407": "\"Yes",
  "1408": " eyes",
  "1409": " pol",
  "1410": " ea",
  "1411": " wear",
  "1412": " shouted",
  "1413": "iss",
  "1414": " perf",
  "1415": "\u20ac",
  "1416": " air",
  "1417": "br",
  "1418": " mother",
  "1419": " peace",
  "1420": "ied",
  "1421": " Remy",
  "1422": " True",
  "1423": " bright",
  "1424": "gl",
  "1425": " Mr",
  "1426": " spl",
  "1427": "bbed",
  "1428": " everywhere",
  "1429": " prom",
  "1430": " cliff",
  "1431": " fire",
  "1432": "ames",
  "1433": "Mia",
  "1434": " chees",
  "1435": " cheese",
  "1436": " shelf",
  "1437": "iz",
  "1438": " vis",
  "1439": " visit",
  "1440": "ows",
  "1441": " design",
  "1442": " Tommy",
  "1443": " huge",
  "1444": " pirate",
  "1445": " name",
  "1446": "ple",
  "1447": " race",
  "1448": "room",
  "1449": " Zippy",
  "1450": " pur",
  "1451": " purse",
  "1452": " scre",
  "1453": " cou",
  "1454": " oats",
  "1455": " storm",
  "1456": " Joe",
  "1457": " rel",
  "1458": " forgot",
  "1459": " notic",
  "1460": " noticed",
  "1461": " lean",
  "1462": " ar",
  "1463": "ater",
  "1464": "atter",
  "1465": " sea",
  "1466": " smell",
  "1467": " leg",
  "1468": " less",
  "1469": " first",
  "1470": " days",
  "1471": " dance",
  "1472": " count",
  "1473": "\"Look",
  "1474": " learn",
  "1475": " Now",
  "1476": " bar",
  "1477": " guard",
  "1478": " hair",
  "1479": " polite",
  "1480": " running",
  "1481": " con",
  "1482": " fru",
  "1483": " fruit",
  "1484": " leaves",
  "1485": " noise",
  "1486": "She",
  "1487": " yellow",
  "1488": " G",
  "1489": "\u20ac",
  "1490": "\u20ac\u2122",
  "1491": " laugh",
  "1492": " full",
  "1493": " father",
  "1494": " Whis",
  "1495": " Whisk",
  "1496": " Whiskers",
  "1497": " sec",
  "1498": " secret",
  "1499": " shap",
  "1500": "Ben",
  "1501": " hear",
  "1502": "What",
  "1503": " repl",
  "1504": " replied",
  "1505": " getting",
  "1506": " Jen",
  "1507": " won",
  "1508": " gone",
  "1509": " game",
  "1510": " sandbox",
  "1511": " map",
  "1512": "ak",
  "1513": " pie",
  "1514": " piec",
  "1515": " pieces",
  "1516": " sunsh",
  "1517": " sunshine",
  "1518": " Chew",
  "1519": "oke",
  "1520": "ang",
  "1521": "ee",
  "1522": " east",
  "1523": " bit",
  "1524": " naught",
  "1525": " naughty",
  "1526": " stup",
  "1527": " stupid",
  "1528": " being",
  "1529": "ster",
  "1530": " shared",
  "1531": " flo",
  "1532": "mer",
  "1533": " cray",
  "1534": " crayon",
  "1535": " coming",
  "1536": " crying",
  "1537": " mar",
  "1538": "idd",
  "1539": " perfect",
  "1540": "Tommy",
  "1541": " book",
  "1542": " scary",
  "1543": "ip",
  "1544": " note",
  "1545": " mommy",
  "1546": " cost",
  "1547": " costum",
  "1548": " costume",
  "1549": " build",
  "1550": " rocks",
  "1551": " z",
  "1552": " rat",
  "1553": " mot",
  "1554": "sp",
  "1555": " poor",
  "1556": " money",
  "1557": " cand",
  "1558": " Benny",
  "1559": " games",
  "1560": " steel",
  "1561": " elev",
  "1562": " elevat",
  "1563": " elevator",
  "1564": "rank",
  "1565": " monke",
  "1566": " monkey",
  "1567": " owl",
  "1568": " vase",
  "1569": " cour",
  "1570": " course",
  "1571": "\u20ac\u009d\n",
  "1572": " river",
  "1573": " swam",
  "1574": "umb",
  "1575": "His",
  "1576": " tight",
  "1577": " sailed",
  "1578": " waved",
  "1579": " cla",
  "1580": " eating",
  "1581": "able",
  "1582": " toile",
  "1583": " toilet",
  "1584": " touch",
  "1585": " woods",
  "1586": " fier",
  "1587": " fierce",
  "1588": "ng",
  "1589": " ter",
  "1590": " terri",
  "1591": " bugs",
  "1592": " someone",
  "1593": "\"Can",
  "1594": " pet",
  "1595": " asks",
  "1596": "\"Wow",
  "1597": " Sara",
  "1598": "\"S",
  "1599": " yelled",
  "1600": "\"I",
  "1601": " pretend",
  "1602": " knock",
  "1603": " Thank",
  "1604": " gi",
  "1605": " moment",
  "1606": "ient",
  "1607": "ost",
  "1608": "\"Oh",
  "1609": " without",
  "1610": "ming",
  "1611": "iding",
  "1612": " puppy",
  "1613": "de",
  "1614": " today",
  "1615": " stories",
  "1616": " night",
  "1617": " remembered",
  "1618": " fight",
  "1619": "reeze",
  "1620": "Anna",
  "1621": " sungl",
  "1622": " sunglass",
  "1623": " sunglasses",
  "1624": " looking",
  "1625": " tri",
  "1626": "ps",
  "1627": " break",
  "1628": " grabbed",
  "1629": " enjoyed",
  "1630": " ru",
  "1631": "eak",
  "1632": " fill",
  "1633": " key",
  "1634": " mouse",
  "1635": " used",
  "1636": " bath",
  "1637": "les",
  "1638": "enny",
  "1639": " cre",
  "1640": "amed",
  "1641": "ches",
  "1642": "ason",
  "1643": "ized",
  "1644": " danced",
  "1645": " disco",
  "1646": " colorful",
  "1647": "ary",
  "1648": " ham",
  "1649": " hammer",
  "1650": " Jack",
  "1651": " inse",
  "1652": " insect",
  "1653": "ings",
  "1654": " floor",
  "1655": " flag",
  "1656": " able",
  "1657": " wom",
  "1658": " woman",
  "1659": " Jan",
  "1660": " Jane",
  "1661": " zoom",
  "1662": " weal",
  "1663": " wealth",
  "1664": " wealthy",
  "1665": " Jim",
  "1666": " Mill",
  "1667": " Milly",
  "1668": " folder",
  "1669": " St",
  "1670": " cook",
  "1671": " mud",
  "1672": " motor",
  "1673": " clothes",
  "1674": "irt",
  "1675": " jet",
  "1676": " lu",
  "1677": " lux",
  "1678": " luxu",
  "1679": " luxury",
  "1680": " Maybe",
  "1681": " magn",
  "1682": " magnet",
  "1683": " Cir",
  "1684": " Circ",
  "1685": " Circle",
  "1686": " hosp",
  "1687": " hospit",
  "1688": " hospital",
  "1689": " Bobby",
  "1690": "oph",
  "1691": "ophia",
  "1692": "ella",
  "1693": "obe",
  "1694": " sink",
  "1695": " oil",
  "1696": " ac",
  "1697": " really",
  "1698": " shop",
  "1699": "Of",
  "1700": " belie",
  "1701": " believe",
  "1702": "ucky",
  "1703": " hurry",
  "1704": "While",
  "1705": "This",
  "1706": " everyone",
  "1707": " tig",
  "1708": " tiger",
  "1709": " eas",
  "1710": " At",
  "1711": " suddenly",
  "1712": " thumb",
  "1713": " seen",
  "1714": "From",
  "1715": " After",
  "1716": " join",
  "1717": " laughing",
  "1718": " sail",
  "1719": " twin",
  "1720": " twins",
  "1721": " foll",
  "1722": " path",
  "1723": " Somet",
  "1724": " left",
  "1725": " cra",
  "1726": " crawl",
  "1727": " paw",
  "1728": " grab",
  "1729": " sharp",
  "1730": " wait",
  "1731": " pers",
  "1732": " start",
  "1733": " swings",
  "1734": " sweet",
  "1735": " strange",
  "1736": " powder",
  "1737": " finished",
  "1738": " barked",
  "1739": " talking",
  "1740": " paint",
  "1741": " fixed",
  "1742": " wo",
  "1743": " wonder",
  "1744": " looks",
  "1745": " terrible",
  "1746": "'ll",
  "1747": " fig",
  "1748": " figure",
  "1749": " reach",
  "1750": "ces",
  "1751": " gig",
  "1752": "\"Thank",
  "1753": " surprise",
  "1754": " shade",
  "1755": " dropped",
  "1756": " chas",
  "1757": " kiss",
  "1758": " To",
  "1759": "orm",
  "1760": " del",
  "1761": " does",
  "1762": "Good",
  "1763": " As",
  "1764": " pulled",
  "1765": " grate",
  "1766": " grateful",
  "1767": " lesson",
  "1768": " sure",
  "1769": " pat",
  "1770": " underst",
  "1771": " understand",
  "1772": " turns",
  "1773": " alm",
  "1774": " almost",
  "1775": "In",
  "1776": " clapped",
  "1777": "ball",
  "1778": " stood",
  "1779": " John",
  "1780": " cute",
  "1781": " remember",
  "1782": " year",
  "1783": " years",
  "1784": " shapes",
  "1785": " buck",
  "1786": " bucket",
  "1787": " meet",
  "1788": "owing",
  "1789": " dream",
  "1790": " spot",
  "1791": " push",
  "1792": " nose",
  "1793": " melt",
  "1794": "ens",
  "1795": "\"Let",
  "1796": " moving",
  "1797": "Do",
  "1798": "Mr",
  "1799": " fear",
  "1800": " singing",
  "1801": " promised",
  "1802": "ually",
  "1803": " flying",
  "1804": " waited",
  "1805": " gun",
  "1806": " tin",
  "1807": " tiny",
  "1808": "Sue",
  "1809": " brother",
  "1810": " crayons",
  "1811": " danger",
  "1812": " dangerous",
  "1813": " pus",
  "1814": " pushed",
  "1815": " mus",
  "1816": " music",
  "1817": " brought",
  "1818": " squash",
  "1819": " must",
  "1820": " cam",
  "1821": "oice",
  "1822": " chick",
  "1823": " discover",
  "1824": "\".",
  "1825": ".\u00e2",
  "1826": " libr",
  "1827": " library",
  "1828": " hit",
  "1829": " snack",
  "1830": " daddy",
  "1831": " set",
  "1832": " cars",
  "1833": " sit",
  "1834": " kick",
  "1835": "ila",
  "1836": " rich",
  "1837": " order",
  "1838": " bri",
  "1839": " brill",
  "1840": " brilli",
  "1841": " brilliant",
  "1842": " snee",
  "1843": " hidd",
  "1844": " hidden",
  "1845": " shirt",
  "1846": " sol",
  "1847": " solve",
  "1848": " jolly",
  "1849": " ink",
  "1850": " itch",
  "1851": " grandpa",
  "1852": " carrots",
  "1853": " Star",
  "1854": " feed",
  "1855": " class",
  "1856": " classroom",
  "1857": " Squ",
  "1858": " Square",
  "1859": " cake",
  "1860": " Bella",
  "1861": " scatter",
  "1862": "essie",
  "1863": " couple",
  "1864": " world",
  "1865": "oss",
  "1866": " relia",
  "1867": " reliable",
  "1868": " easy",
  "1869": "ake",
  "1870": " caref",
  "1871": " carefull",
  "1872": " carefully",
  "1873": " cal",
  "1874": " calm",
  "1875": " talked",
  "1876": " follow",
  "1877": " behind",
  "1878": " hung",
  "1879": " smar",
  "1880": " smart",
  "1881": "ance",
  "1882": "Soon",
  "1883": " te",
  "1884": " close",
  "1885": "Okay",
  "1886": " wet",
  "1887": " flower",
  "1888": " hu",
  "1889": " hunt",
  "1890": " hunter",
  "1891": " done",
  "1892": " magical",
  "1893": "Kate",
  "1894": " brown",
  "1895": "Her",
  "1896": " fur",
  "1897": " smiles",
  "1898": " wag",
  "1899": " tail",
  "1900": " lick",
  "1901": " faces",
  "1902": " teet",
  "1903": " teeth",
  "1904": "\"You",
  "1905": "Amy",
  "1906": " pale",
  "1907": " only",
  "1908": " shook",
  "1909": " pumpkins",
  "1910": " bran",
  "1911": " blew",
  "1912": "Sara",
  "1913": " leaf",
  "1914": "\"It",
  "1915": " makes",
  "1916": " breath",
  "1917": "Hel",
  "1918": "Help",
  "1919": " chased",
  "1920": " loves",
  "1921": " dogs",
  "1922": " might",
  "1923": " postman",
  "1924": " gives",
  "1925": " nod",
  "1926": " exp",
  "1927": " mist",
  "1928": " patient",
  "1929": " bal",
  "1930": " Some",
  "1931": " cheered",
  "1932": " bed",
  "1933": " hon",
  "1934": " free",
  "1935": "cer",
  "1936": " My",
  "1937": " foot",
  "1938": " ce",
  "1939": " carry",
  "1940": "Oh",
  "1941": " neck",
  "1942": "\".\n",
  "1943": " shells",
  "1944": " ear",
  "1945": " peaceful",
  "1946": " swimming",
  "1947": " inc",
  "1948": " ducks",
  "1949": " lands",
  "1950": " landsc",
  "1951": " landscap",
  "1952": " landscape",
  "1953": " cold",
  "1954": "tle",
  "1955": " legs",
  "1956": " That",
  "1957": " sli",
  "1958": "freeze",
  "1959": " stom",
  "1960": " stomp",
  "1961": "pping",
  "1962": " pirat",
  "1963": " pirates",
  "1964": " quick",
  "1965": " quickly",
  "1966": " mum",
  "1967": " nearby",
  "1968": "ire",
  "1969": "ises",
  "1970": " wrong",
  "1971": "entually",
  "1972": " filled",
  "1973": " butter",
  "1974": " butterf",
  "1975": " fine",
  "1976": " landed",
  "1977": "ious",
  "1978": " slow",
  "1979": " powerful",
  "1980": " stuck",
  "1981": " wash",
  "1982": "weet",
  "1983": "uring",
  "1984": " takes",
  "1985": " Penny",
  "1986": " ice",
  "1987": " cor",
  "1988": " corner",
  "1989": "ored",
  "1990": " match",
  "1991": " doing",
  "1992": " bigger",
  "1993": " musici",
  "1994": " musician",
  "1995": " round",
  "1996": " kit",
  "1997": " voice",
  "1998": " cows",
  "1999": " pigs",
  "2000": " chickens",
  "2001": "ne",
  "2002": " lab",
  "2003": " label",
  "2004": " most",
  "2005": " pri",
  "2006": "Molly",
  "2007": " read",
  "2008": " bell",
  "2009": " living",
  "2010": " mine",
  "2011": " pre",
  "2012": "ms",
  "2013": " boxes",
  "2014": " att",
  "2015": " shoes",
  "2016": " drank",
  "2017": " slid",
  "2018": " grandm",
  "2019": " grandmother",
  "2020": " building",
  "2021": "My",
  "2022": " dull",
  "2023": "ail",
  "2024": " act",
  "2025": " monster",
  "2026": " gum",
  "2027": " sees",
  "2028": " runs",
  "2029": "\"He",
  "2030": " Give",
  "2031": " fearful",
  "2032": " dra",
  "2033": " draw",
  "2034": " pictures",
  "2035": " sneeze",
  "2036": " watching",
  "2037": " gray",
  "2038": " why",
  "2039": " candy",
  "2040": " screen",
  "2041": " tear",
  "2042": " gently",
  "2043": " write",
  "2044": " ride",
  "2045": " pop",
  "2046": " popul",
  "2047": " popular",
  "2048": " ans",
  "2049": " answ",
  "2050": " waff",
  "2051": " waffle",
  "2052": " hotel",
  "2053": " leash",
  "2054": " lad",
  "2055": " ladder",
  "2056": " Momma",
  "2057": " fing",
  "2058": " dri",
  "2059": " delic",
  "2060": " delicate",
  "2061": "Suddenly",
  "2062": " moved",
  "2063": " pool",
  "2064": " rise",
  "2065": " stat",
  "2066": " statue",
  "2067": " spin",
  "2068": "Frank",
  "2069": "ony",
  "2070": " val",
  "2071": " value",
  "2072": " prob",
  "2073": " proble",
  "2074": " problem",
  "2075": " Bessie",
  "2076": " Pink",
  "2077": " Pinky",
  "2078": " steak",
  "2079": " bathr",
  "2080": " bathrobe",
  "2081": " mountain",
  "2082": " seed",
  "2083": " seeds",
  "2084": " amazed",
  "2085": "!\u00e2",
  "2086": " lucky",
  "2087": " carried",
  "2088": " anywhere",
  "2089": " later",
  "2090": " imag",
  "2091": " imagin",
  "2092": " mout",
  "2093": " mouth",
  "2094": " fit",
  "2095": " knowing",
  "2096": " bus",
  "2097": " followed",
  "2098": " Sometimes",
  "2099": " hungry",
  "2100": " hide",
  "2101": " smelled",
  "2102": " poked",
  "2103": "led",
  "2104": " person",
  "2105": " few",
  "2106": " light",
  "2107": "cing",
  "2108": " songs",
  "2109": "\"Mom",
  "2110": " Be",
  "2111": " young",
  "2112": " spear",
  "2113": " dare",
  "2114": "Dad",
  "2115": " move",
  "2116": " ow",
  "2117": " backy",
  "2118": " backyard",
  "2119": " worried",
  "2120": " Soon",
  "2121": "\"Hello",
  "2122": " gigg",
  "2123": " giggle",
  "2124": " wearing",
  "2125": " cont",
  "2126": " contin",
  "2127": " lions",
  "2128": " whole",
  "2129": " sitt",
  "2130": " sitting",
  "2131": " branch",
  "2132": " sticks",
  "2133": "anged",
  "2134": " toug",
  "2135": " tough",
  "2136": " plant",
  "2137": " fre",
  "2138": " fresh",
  "2139": "Just",
  "2140": " black",
  "2141": "Their",
  "2142": " Today",
  "2143": " cust",
  "2144": " custom",
  "2145": " customer",
  "2146": " pack",
  "2147": " thinks",
  "2148": " grandma",
  "2149": " nods",
  "2150": " explor",
  "2151": " fool",
  "2152": " foolish",
  "2153": " surf",
  "2154": " fis",
  "2155": " fisher",
  "2156": " fisherman",
  "2157": " mistake",
  "2158": " wise",
  "2159": "akes",
  "2160": " whi",
  "2161": " which",
  "2162": " log",
  "2163": " balance",
  "2164": " honest",
  "2165": " been",
  "2166": " sport",
  "2167": " soc",
  "2168": " soccer",
  "2169": "Now",
  "2170": " Thom",
  "2171": " Thomas",
  "2172": " football",
  "2173": " Suddenly",
  "2174": " cele",
  "2175": " celebr",
  "2176": " asking",
  "2177": "Who",
  "2178": "umpy",
  "2179": " riding",
  "2180": " wagged",
  "2181": " late",
  "2182": " elder",
  "2183": " elderly",
  "2184": "gy",
  "2185": " angels",
  "2186": " forget",
  "2187": " hed",
  "2188": " hedge",
  "2189": " Teddy",
  "2190": " led",
  "2191": " himse",
  "2192": " himself",
  "2193": " forth",
  "2194": "\"No",
  "2195": " comes",
  "2196": "\"St",
  "2197": " slipped",
  "2198": " smaller",
  "2199": " '",
  "2200": " stomped",
  "2201": " feet",
  "2202": " hopping",
  "2203": " decide",
  "2204": " dig",
  "2205": " thank",
  "2206": " Mrs",
  "2207": " coat",
  "2208": "Mrs",
  "2209": " ed",
  "2210": " edge",
  "2211": " rude",
  "2212": " spoke",
  "2213": " shining",
  "2214": " promise",
  "2215": " anyway",
  "2216": " eventually",
  "2217": " glue",
  "2218": " dry",
  "2219": " Man",
  "2220": " Many",
  "2221": " unl",
  "2222": " unlock",
  "2223": " stubb",
  "2224": " stubbor",
  "2225": " stubborn",
  "2226": " splash",
  "2227": " taking",
  "2228": " tap",
  "2229": " creat",
  "2230": " creative",
  "2231": " mark",
  "2232": " wheel",
  "2233": "Maybe",
  "2234": " hay",
  "2235": " pay",
  "2236": " wished",
  "2237": "ely",
  "2238": "ult",
  "2239": " Wit",
  "2240": " With",
  "2241": " half",
  "2242": "How",
  "2243": "ible",
  "2244": " kitc",
  "2245": " kitchen",
  "2246": " camp",
  "2247": " holding",
  "2248": "ual",
  "2249": " discovered",
  "2250": " pap",
  "2251": " paper",
  "2252": " such",
  "2253": " joy",
  "2254": " birdc",
  "2255": " birdcage",
  "2256": " unk",
  "2257": " unkn",
  "2258": " unknown",
  "2259": " lead",
  "2260": " wra",
  "2261": " belong",
  "2262": " belongs",
  "2263": " yours",
  "2264": " hea",
  "2265": " heav",
  "2266": " heavy",
  "2267": " noises",
  "2268": " arms",
  "2269": " area",
  "2270": " ship",
  "2271": " isl",
  "2272": " island",
  "2273": " clap",
  "2274": " cow",
  "2275": " bored",
  "2276": "\"We",
  "2277": " glass",
  "2278": " window",
  "2279": "Be",
  "2280": " comple",
  "2281": " complet",
  "2282": " fallen",
  "2283": " drink",
  "2284": " climbed",
  "2285": " knee",
  "2286": " intell",
  "2287": " intellig",
  "2288": " intelligent",
  "2289": " mail",
  "2290": " mailbox",
  "2291": "head",
  "2292": " ener",
  "2293": "ney",
  "2294": " realized",
  "2295": " wouldn",
  "2296": " kicked",
  "2297": "Lila",
  "2298": " skull",
  "2299": " puts",
  "2300": " lock",
  "2301": " helpful",
  "2302": " grass",
  "2303": " drawing",
  "2304": " splas",
  "2305": " working",
  "2306": " trust",
  "2307": " lady",
  "2308": " dark",
  "2309": " hats",
  "2310": " cloth",
  "2311": " pian",
  "2312": " piano",
  "2313": " leave",
  "2314": " scr",
  "2315": " scratch",
  "2316": " Tin",
  "2317": " Tina",
  "2318": " metal",
  "2319": " birth",
  "2320": " birthday",
  "2321": " candles",
  "2322": " behave",
  "2323": " pun",
  "2324": "Leo",
  "2325": " finger",
  "2326": " rop",
  "2327": " rope",
  "2328": " quit",
  "2329": " Sophia",
  "2330": "Sophia",
  "2331": " butterfly",
  "2332": " answered",
  "2333": "ling",
  "2334": " conf",
  "2335": " confus",
  "2336": " confused",
  "2337": " cane",
  "2338": " ug",
  "2339": " ugly",
  "2340": " knocked",
  "2341": "Timmy",
  "2342": " disa",
  "2343": " disapp",
  "2344": " disappoin",
  "2345": " disappointed",
  "2346": " gear",
  "2347": " spinning",
  "2348": " enough",
  "2349": " swe",
  "2350": " sweater",
  "2351": " Frank",
  "2352": " Tweet",
  "2353": " Tweetie",
  "2354": "Jason",
  "2355": " hope",
  "2356": " cho",
  "2357": " choco",
  "2358": " chocol",
  "2359": " chocolate",
  "2360": "Joe",
  "2361": " noteb",
  "2362": " notebook",
  "2363": " marri",
  "2364": " marriage",
  "2365": " films",
  "2366": " prize",
  "2367": " comp",
  "2368": " compass",
  "2369": " compassion",
  "2370": " lift",
  "2371": " acr",
  "2372": " across",
  "2373": "keep",
  "2374": "keeper",
  "2375": "And",
  "2376": " otter",
  "2377": " catching",
  "2378": "ird",
  "2379": " leaned",
  "2380": " app",
  "2381": " ign",
  "2382": " batter",
  "2383": " battery",
  "2384": " last",
  "2385": "|>\n\n\n\n",
  "2386": " lar",
  "2387": " large",
  "2388": " bushes",
  "2389": " crawled",
  "2390": " af",
  "2391": " afra",
  "2392": " afraid",
  "2393": " waiting",
  "2394": " weig",
  "2395": " momma",
  "2396": " exer",
  "2397": " exerc",
  "2398": " lighter",
  "2399": " dancing",
  "2400": " telev",
  "2401": " televis",
  "2402": " television",
  "2403": " dep",
  "2404": " depend",
  "2405": " dependable",
  "2406": " smells",
  "2407": " touc",
  "2408": " touched",
  "2409": " grow",
  "2410": " dar",
  "2411": " dared",
  "2412": " repa",
  "2413": " repair",
  "2414": " painted",
  "2415": " own",
  "2416": " Kate",
  "2417": " wonderful",
  "2418": " starting",
  "2419": " rid",
  "2420": " boys",
  "2421": " child",
  "2422": " childre",
  "2423": " children",
  "2424": " licks",
  "2425": " letting",
  "2426": "sn",
  "2427": " dresses",
  "2428": " continu",
  "2429": " continued",
  "2430": " tun",
  "2431": " tunn",
  "2432": " tunnel",
  "2433": " roared",
  "2434": " teach",
  "2435": " changed",
  "2436": " tast",
  "2437": "\"Sure",
  "2438": " bark",
  "2439": "\"Help",
  "2440": " fright",
  "2441": " frightened",
  "2442": "\"B",
  "2443": " alone",
  "2444": " kissed",
  "2445": " Don",
  "2446": " tummy",
  "2447": "ages",
  "2448": " bringing",
  "2449": "Goodbye",
  "2450": " spent",
  "2451": " exploring",
  "2452": " surface",
  "2453": "\u20ac\u0153I",
  "2454": " forgive",
  "2455": " stayed",
  "2456": " ox",
  "2457": " oxy",
  "2458": " oxyg",
  "2459": " oxygen",
  "2460": " breat",
  "2461": "ugged",
  "2462": " wild",
  "2463": " patch",
  "2464": "old",
  "2465": "Every",
  "2466": " bravely",
  "2467": " stepped",
  "2468": "ated",
  "2469": " guil",
  "2470": " guilty",
  "2471": "Sorry",
  "2472": " Just",
  "2473": " mad",
  "2474": " treats",
  "2475": " beach",
  "2476": " pink",
  "2477": " waves",
  "2478": " boats",
  "2479": " same",
  "2480": " imagined",
  "2481": " telling",
  "2482": " adventures",
  "2483": " inclu",
  "2484": "?!\"\n",
  "2485": " lake",
  "2486": " winter",
  "2487": "oof",
  "2488": " throwing",
  "2489": " snowball",
  "2490": "Teddy",
  "2491": " ont",
  "2492": " onto",
  "2493": " swung",
  "2494": " shel",
  "2495": " norm",
  "2496": " normal",
  "2497": "\"Stop",
  "2498": " body",
  "2499": ",'",
  "2500": "\"Okay",
  "2501": " sounds",
  "2502": "Freeze",
  "2503": " times",
  "2504": " shove",
  "2505": " shovel",
  "2506": " clum",
  "2507": " clums",
  "2508": " clumsy",
  "2509": " spill",
  "2510": " breaks",
  "2511": " starts",
  "2512": " feels",
  "2513": " shone",
  "2514": " hus",
  "2515": " husb",
  "2516": " husband",
  "2517": " split",
  "2518": " pic",
  "2519": " picn",
  "2520": " picnic",
  "2521": "Chew",
  "2522": " messy",
  "2523": " lang",
  "2524": " langu",
  "2525": " perm",
  "2526": " permit",
  "2527": "ushed",
  "2528": " disg",
  "2529": " disgust",
  "2530": " disgusting",
  "2531": " See",
  "2532": " persist",
  "2533": " persistent",
  "2534": " myster",
  "2535": " mysterious",
  "2536": " quar",
  "2537": " quarrel",
  "2538": " Their",
  "2539": " tom",
  "2540": " tomor",
  "2541": " tomorr",
  "2542": " tomorrow",
  "2543": " jung",
  "2544": " jungle",
  "2545": " cave",
  "2546": " vic",
  "2547": " vict",
  "2548": " victor",
  "2549": " victory",
  "2550": " yucky",
  "2551": " measure",
  "2552": " kneel",
  "2553": "\"Tom",
  "2554": "\"Don",
  "2555": " cann",
  "2556": " cannot",
  "2557": " On",
  "2558": " pulling",
  "2559": " Please",
  "2560": " scu",
  "2561": " sculp",
  "2562": " sculpt",
  "2563": " sculpture",
  "2564": " packed",
  "2565": " cube",
  "2566": "Penny",
  "2567": " decor",
  "2568": " decorate",
  "2569": " adm",
  "2570": " art",
  "2571": " beamed",
  "2572": " mat",
  "2573": " matches",
  "2574": " table",
  "2575": " struck",
  "2576": " flame",
  "2577": " bur",
  "2578": " caught",
  "2579": " smoke",
  "2580": " firem",
  "2581": " firemen",
  "2582": " spr",
  "2583": " ash",
  "2584": " ashamed",
  "2585": " jog",
  "2586": " ob",
  "2587": " diffic",
  "2588": " difficult",
  "2589": " guit",
  "2590": " guitar",
  "2591": " paws",
  "2592": " tries",
  "2593": " piece",
  "2594": " poss",
  "2595": " market",
  "2596": " coo",
  "2597": " famous",
  "2598": "itten",
  "2599": " pen",
  "2600": " gather",
  "2601": " gathered",
  "2602": " growing",
  "2603": "zed",
  "2604": " side",
  "2605": " midd",
  "2606": " middle",
  "2607": " hous",
  "2608": " houses",
  "2609": " none",
  "2610": " sear",
  "2611": " creation",
  "2612": " desig",
  "2613": " Molly",
  "2614": " don\u00e2",
  "2615": " ins",
  "2616": " insis",
  "2617": " insisted",
  "2618": " unh",
  "2619": " unha",
  "2620": " unhappy",
  "2621": " ringing",
  "2622": " books",
  "2623": " finally",
  "2624": " closet",
  "2625": " wrapped",
  "2626": " fighting",
  "2627": "\"A",
  "2628": " needle",
  "2629": " scare",
  "2630": " sing",
  "2631": " poin",
  "2632": " pointing",
  "2633": " sleepy",
  "2634": " lose",
  "2635": " acc",
  "2636": " accid",
  "2637": " accident",
  "2638": "\"What",
  "2639": " finding",
  "2640": " hiding",
  "2641": " grumpy",
  "2642": " char",
  "2643": " cause",
  "2644": " How",
  "2645": " complete",
  "2646": " swinging",
  "2647": "During",
  "2648": "Moral",
  "2649": " drin",
  "2650": " drinking",
  "2651": "la",
  "2652": "ud",
  "2653": " bott",
  "2654": " bottom",
  "2655": " incr",
  "2656": " incred",
  "2657": " incredible",
  "2658": " peel",
  "2659": " zoomed",
  "2660": " ahead",
  "2661": " pass",
  "2662": " passed",
  "2663": " energy",
  "2664": " excite",
  "2665": " excitem",
  "2666": " excitement",
  "2667": " intere",
  "2668": " interest",
  "2669": " jour",
  "2670": " journey",
  "2671": "iting",
  "2672": " comf",
  "2673": "ence",
  "2674": " jail",
  "2675": " daught",
  "2676": " daughter",
  "2677": " bush",
  "2678": " Fin",
  "2679": " Finally",
  "2680": " seem",
  "2681": " trick",
  "2682": " je",
  "2683": " jeal",
  "2684": " jealous",
  "2685": "Ella",
  "2686": " shows",
  "2687": " Lila",
  "2688": " gold",
  "2689": " holds",
  "2690": " calls",
  "2691": " pla",
  "2692": " neig",
  "2693": " neigh",
  "2694": "\"Hey",
  "2695": " bites",
  "2696": " shakes",
  "2697": " lips",
  "2698": " gate",
  "2699": " pies",
  "2700": "ix",
  "2701": " planets",
  "2702": "Zippy",
  "2703": " fruits",
  "2704": " miss",
  "2705": " missed",
  "2706": " throw",
  "2707": "ye",
  "2708": " pro",
  "2709": " prov",
  "2710": " hers",
  "2711": " giving",
  "2712": " longer",
  "2713": " picks",
  "2714": " camer",
  "2715": " camera",
  "2716": "\"OK",
  "2717": " leads",
  "2718": " tells",
  "2719": " fron",
  "2720": " front",
  "2721": " shine",
  "2722": " Together",
  "2723": " rode",
  "2724": "cuse",
  "2725": " mis",
  "2726": " miser",
  "2727": " miserable",
  "2728": " lap",
  "2729": " barn",
  "2730": " stall",
  "2731": " pee",
  "2732": " lets",
  "2733": "\"Maybe",
  "2734": " hell",
  "2735": " hello",
  "2736": " nest",
  "2737": " organ",
  "2738": " organized",
  "2739": " dive",
  "2740": " soar",
  "2741": " hugs",
  "2742": " sir",
  "2743": " brings",
  "2744": " shape",
  "2745": " unite",
  "2746": " inv",
  "2747": "angle",
  "2748": " everything",
  "2749": " celebrate",
  "2750": " pres",
  "2751": " sang",
  "2752": "Momma",
  "2753": " giggl",
  "2754": " giggled",
  "2755": " nation",
  "2756": " vill",
  "2757": " village",
  "2758": " punish",
  "2759": " cookies",
  "2760": " cookie",
  "2761": " ben",
  "2762": " bench",
  "2763": " trash",
  "2764": " marry",
  "2765": " rings",
  "2766": " trucks",
  "2767": " siz",
  "2768": " sizes",
  "2769": " driver",
  "2770": " drivers",
  "2771": " happen",
  "2772": " drive",
  "2773": " butt",
  "2774": " button",
  "2775": " buttons",
  "2776": " scream",
  "2777": " rad",
  "2778": " radi",
  "2779": " radio",
  "2780": " enorm",
  "2781": " enormous",
  "2782": " splashed",
  "2783": "Hey",
  "2784": "Bobby",
  "2785": " Everything",
  "2786": " ind",
  "2787": " inde",
  "2788": " indeed",
  "2789": " laz",
  "2790": " lazy",
  "2791": " Something",
  "2792": " wis",
  "2793": " wisd",
  "2794": " wisdom",
  "2795": " advice",
  "2796": " coura",
  "2797": " courage",
  "2798": " bread",
  "2799": " warning",
  "2800": " exam",
  "2801": " higher",
  "2802": " thirst",
  "2803": " thirsty",
  "2804": " pour",
  "2805": " poured",
  "2806": " nap",
  "2807": " napkin",
  "2808": " doors",
  "2809": " dest",
  "2810": " destr",
  "2811": " destroy",
  "2812": " cleaned",
  "2813": " cross",
  "2814": " Tony",
  "2815": "Tony",
  "2816": " Sally",
  "2817": " cover",
  "2818": " Jason",
  "2819": " el",
  "2820": " else",
  "2821": " designs",
  "2822": " screamed",
  "2823": " rooms",
  "2824": " res",
  "2825": " whip",
  "2826": " unus",
  "2827": " unusual",
  "2828": " Robe",
  "2829": " compassionate",
  "2830": " weight",
  "2831": " bottle",
  "2832": " vas",
  "2833": " vases",
  "2834": " displ",
  "2835": " display",
  "2836": "  \n",
  "2837": "\u20ac\u0153Wow",
  "2838": "?\u00e2",
  "2839": " shopkeeper",
  "2840": "\u20ac\u0153Of",
  "2841": " shake",
  "2842": " weird",
  "2843": " curiously",
  "2844": "look",
  "2845": " arri",
  "2846": " arrived",
  "2847": " appre",
  "2848": " apprec",
  "2849": " appreci",
  "2850": " appreciation",
  "2851": " rem",
  "2852": " remind",
  "2853": " reminder",
  "2854": " Will",
  "2855": "Sp",
  "2856": "Spirit",
  "2857": "Spirits",
  "2858": " imagination",
  "2859": " ignore",
  "2860": " raced",
  "2861": " sailor",
  "2862": "|>\n\n\n\n\n",
  "2863": " paths",
  "2864": " exit",
  "2865": " hoped",
  "2866": " pin",
  "2867": " pinched",
  "2868": " claw",
  "2869": " claws",
  "2870": " eye",
  "2871": " howled",
  "2872": " backed",
  "2873": " chance",
  "2874": " weighed",
  "2875": " exercis",
  "2876": " exercising",
  "2877": " everyday",
  "2878": " exercise",
  "2879": " sug",
  "2880": " sugg",
  "2881": " sugges",
  "2882": " suggested",
  "2883": " weighing",
  "2884": " bare",
  "2885": " barely",
  "2886": " closely",
  "2887": " helps",
  "2888": " counting",
  "2889": "-s",
  "2890": "-sm",
  "2891": "-smell",
  "2892": "-smelling",
  "2893": " shoot",
  "2894": " loudly",
  "2895": " talk",
  "2896": "\"Dad",
  "2897": "\"Daddy",
  "2898": " honey",
  "2899": " watered",
  "2900": " rely",
  "2901": " bald",
  "2902": " furry",
  "2903": " wags",
  "2904": " ga",
  "2905": " gaze",
  "2906": "Rex",
  "2907": " eager",
  "2908": " Isn",
  "2909": " jumping",
  "2910": " reg",
  "2911": " regret",
  "2912": " Next",
  "2913": " thro",
  "2914": " throat",
  "2915": " using",
  "2916": " weather",
  "2917": " pot",
  "2918": " taste",
  "2919": " spic",
  "2920": " spicy",
  "2921": "\"Y",
  "2922": "\"Yuck",
  "2923": " spat",
  "2924": " barking",
  "2925": " toward",
  "2926": " towards",
  "2927": " tong",
  "2928": " tongue",
  "2929": "\"G",
  "2930": "\"Go",
  "2931": "\"Bad",
  "2932": " Le",
  "2933": " Leave",
  "2934": "Are",
  "2935": " ache",
  "2936": " office",
  "2937": " knocks",
  "2938": " letter",
  "2939": " letters",
  "2940": " packages",
  "2941": " opens",
  "2942": " perform",
  "2943": " well",
  "2944": " send",
  "2945": " card",
  "2946": " deli",
  "2947": " deliver",
  "2948": " Where",
  "2949": " live",
  "2950": " lives",
  "2951": " hill",
  "2952": " Good",
  "2953": " Goodbye",
  "2954": " Have",
  "2955": " wave",
  "2956": " oce",
  "2957": " ocean",
  "2958": " fisherman\u00e2",
  "2959": " bait",
  "2960": " you\u00e2",
  "2961": "\u20ac\u009d.\n",
  "2962": "\u20ac",
  "2963": "\u20ac\u201c",
  "2964": " tho",
  "2965": " those",
  "2966": " mistakes",
  "2967": " It\u00e2",
  "2968": " understanding",
  "2969": " breathe",
  "2970": " wob",
  "2971": " wobb",
  "2972": " wobbled",
  "2973": " balan",
  "2974": " balancing",
  "2975": " breathing",
  "2976": " learning",
  "2977": " shr",
  "2978": " shrugged",
  "2979": "-y",
  "2980": "-year",
  "2981": "-old",
  "2982": " Sat",
  "2983": " Satur",
  "2984": " Saturday",
  "2985": " loc",
  "2986": " local",
  "2987": " ent",
  "2988": " entered",
  "2989": " ly",
  "2990": " lying",
  "2991": " forw",
  "2992": " forward",
  "2993": " celebrated",
  "2994": " hero",
  "2995": " carrying",
  "2996": "Mam",
  "2997": "Mama",
  "2998": " proudly",
  "2999": " Did",
  "3000": " softly",
  "3001": " tightly",
  "3002": " relie",
  "3003": " relieved",
  "3004": " loy",
  "3005": " loyal",
  "3006": " quest",
  "3007": " question",
  "3008": " questioned",
  "3009": " smo",
  "3010": " smoot",
  "3011": " smooth",
  "3012": " bumpy",
  "3013": " listening",
  "3014": " coll",
  "3015": " collar",
  "3016": " include",
  "3017": " tag",
  "3018": " headed",
  "3019": " includ",
  "3020": " included",
  "3021": " meeting",
  "3022": "Woof",
  "3023": " Woof",
  "3024": " doggy",
  "3025": " snowballs",
  "3026": " dreamt",
  "3027": "Remy",
  "3028": " turtle",
  "3029": " Foll",
  "3030": " Follow",
  "3031": "True",
  "3032": " son",
  "3033": " shelter",
  "3034": " choo",
  "3035": " choose",
  "3036": " agree",
  "3037": "\"Bob",
  "3038": " forever",
  "3039": " Fight",
  "3040": " Fighting",
  "3041": "\"J",
  "3042": "\"Jen",
  "3043": "\"Tim",
  "3044": " sooner",
  "3045": " happens",
  "3046": " chu",
  "3047": " chub",
  "3048": " chubby",
  "3049": " nothing",
  "3050": " opin",
  "3051": " opinion",
  "3052": " prot",
  "3053": " protect",
  "3054": " ston",
  "3055": " stones",
  "3056": " trips",
  "3057": " falls",
  "3058": " spills",
  "3059": " continue",
  "3060": " brightly",
  "3061": " alre",
  "3062": " already",
  "3063": " surfa",
  "3064": " surfaced",
  "3065": " wasn",
  "3066": " bas",
  "3067": " bask",
  "3068": " basket",
  "3069": " conqu",
  "3070": " conquered",
  "3071": " bra",
  "3072": " bravery",
  "3073": " language",
  "3074": " word",
  "3075": " words",
  "3076": " languages",
  "3077": " ways",
  "3078": " Little",
  "3079": " excitedly",
  "3080": " rushed",
  "3081": " speak",
  "3082": " mor",
  "3083": " morning",
  "3084": " dire",
  "3085": " direct",
  "3086": " direction",
  "3087": " rises",
  "3088": " badly",
  "3089": " nowhere",
  "3090": " knows",
  "3091": " \"\n",
  "3092": " mead",
  "3093": " meadow",
  "3094": " butterfl",
  "3095": " butterflies",
  "3096": " point",
  "3097": "bang",
  "3098": " bang",
  "3099": " frogs",
  "3100": " planned",
  "3101": " qui",
  "3102": " quiet",
  "3103": " sneak",
  "3104": " sneaky",
  "3105": " unlocked",
  "3106": " closed",
  "3107": " Why",
  "3108": "Later",
  "3109": " kneeled",
  "3110": " kneeling",
  "3111": " backs",
  "3112": "Tweet",
  "3113": " tweet",
  "3114": " meas",
  "3115": " measuring",
  "3116": " Bird",
  "3117": " becom",
  "3118": " becoming",
  "3119": " Only",
  "3120": " tick",
  "3121": " tickles",
  "3122": " floated",
  "3123": " bobbed",
  "3124": " sum",
  "3125": " summer",
  "3126": " forming",
  "3127": " markers",
  "3128": " colored",
  "3129": " drew",
  "3130": " master",
  "3131": " masterp",
  "3132": " masterpie",
  "3133": " masterpiece",
  "3134": " admire",
  "3135": " artw",
  "3136": " artwor",
  "3137": " artwork",
  "3138": "\u20ac\u0153Look",
  "3139": " restored",
  "3140": " pride",
  "3141": " aftern",
  "3142": " afterno",
  "3143": " afternoon",
  "3144": " enjoying",
  "3145": " Penny\u00e2",
  "3146": " brothers",
  "3147": "\"Sam",
  "3148": " burn",
  "3149": " grew",
  "3150": " burning",
  "3151": " flames",
  "3152": " hose",
  "3153": " spray",
  "3154": " sprayed",
  "3155": " trut",
  "3156": " truth",
  "3157": " dam",
  "3158": " damage",
  "3159": " wanting",
  "3160": " lon",
  "3161": " lonely",
  "3162": " obs",
  "3163": " obser",
  "3164": " observe",
  "3165": " march",
  "3166": " season",
  "3167": "snap",
  "3168": " suc",
  "3169": " succe",
  "3170": " succeed",
  "3171": " possible",
  "3172": " warn",
  "3173": " shopping",
  "3174": " cooked",
  "3175": " moder",
  "3176": " modern",
  "3177": " bought",
  "3178": " trip",
  "3179": " rec",
  "3180": " recog",
  "3181": " recogn",
  "3182": " recognized",
  "3183": " usual",
  "3184": " fed",
  "3185": " joined",
  "3186": " waters",
  "3187": " underne",
  "3188": " underneath",
  "3189": " -",
  "3190": " written",
  "3191": "Fr",
  "3192": "Frog",
  "3193": " Po",
  "3194": " Pond",
  "3195": " discovery",
  "3196": " fame",
  "3197": " prized",
  "3198": " possess",
  "3199": " possession",
  "3200": " faster",
  "3201": " kinds",
  "3202": " quite",
  "3203": " search",
  "3204": " col",
  "3205": " colour",
  "3206": " text",
  "3207": " texture",
  "3208": " create",
  "3209": " aw",
  "3210": " awe",
  "3211": " known",
  "3212": " designing",
  "3213": " creations",
  "3214": " disag",
  "3215": " disagreed",
  "3216": "\u20ac\u0153The",
  "3217": " restle",
  "3218": " restless",
  "3219": "\u20ac\u0153No",
  "3220": " stam",
  "3221": " stamp",
  "3222": " stamped",
  "3223": "\u20ac\u0153Let",
  "3224": "\u20ac\u0153Let\u00e2",
  "3225": " lovely",
  "3226": " ring",
  "3227": "\"P",
  "3228": "\"Please",
  "3229": " tugged",
  "3230": "\"Max",
  "3231": "\"But",
  "3232": "\"Act",
  "3233": "\"Actually",
  "3234": " needs",
  "3235": "\"Why",
  "3236": " yar",
  "3237": " yarn",
  "3238": " spark",
  "3239": " sparkly",
  "3240": " sharing",
  "3241": " prev",
  "3242": " prevent",
  "3243": " tower",
  "3244": " picking",
  "3245": " cleaning",
  "3246": "Everyone",
  "3247": " Inst",
  "3248": " Inste",
  "3249": " Instead",
  "3250": " ser",
  "3251": " serious",
  "3252": " seeing",
  "3253": " accidentally",
  "3254": " raining",
  "3255": " sign",
  "3256": " holes",
  "3257": " flap",
  "3258": " flaps",
  "3259": " strings",
  "3260": " arr",
  "3261": " arranged",
  "3262": " twis",
  "3263": " twisty",
  "3264": " dead",
  "3265": " ends",
  "3266": " explored",
  "3267": " Look",
  "3268": " su",
  "3269": " supp",
  "3270": " suppo",
  "3271": " suppos",
  "3272": " supposed",
  "3273": " charit",
  "3274": " charity",
  "3275": " sale",
  "3276": " sig",
  "3277": " sighed",
  "3278": " attach",
  "3279": " sunl",
  "3280": " sunlight",
  "3281": " admired",
  "3282": " atta",
  "3283": " attached",
  "3284": " cup",
  "3285": " appla",
  "3286": " applaud",
  "3287": " hairy",
  "3288": " licked",
  "3289": " sliding",
  "3290": "hi",
  "3291": " numb",
  "3292": " number",
  "3293": " step",
  "3294": " steps",
  "3295": " counted",
  "3296": "\u20ac\u0153It",
  "3297": "\u20ac\u0153It\u00e2",
  "3298": " allows",
  "3299": " tallest",
  "3300": " ban",
  "3301": " banan",
  "3302": " banana",
  "3303": " mod",
  "3304": " modest",
  "3305": " moti",
  "3306": " motiv",
  "3307": " motivation",
  "3308": " energet",
  "3309": " energetic",
  "3310": " become",
  "3311": " interested",
  "3312": " exciting",
  "3313": " insp",
  "3314": " inspired",
  "3315": " crawling",
  "3316": " life",
  "3317": " comfort",
  "3318": " zone",
  "3319": " past",
  "3320": " fence",
  "3321": " surround",
  "3322": " surrounding",
  "3323": " law",
  "3324": " explain",
  "3325": " poke",
  "3326": " acting",
  "3327": " relax",
  "3328": "Inside",
  "3329": "?\".",
  "3330": " disc",
  "3331": " discu",
  "3332": " discuss",
  "3333": " discussed",
  "3334": "Jack",
  "3335": " fair",
  "3336": " learnt",
  "3337": " sisters",
  "3338": " attent",
  "3339": " attention",
  "3340": " part",
  "3341": " realised",
  "3342": " faire",
  "3343": " fairer",
  "3344": " pair",
  "3345": " sciss",
  "3346": " scissor",
  "3347": " scissors",
  "3348": " gara",
  "3349": " garage",
  "3350": "\"Ah",
  "3351": "\"Ahoy",
  "3352": " mate",
  "3353": " matey",
  "3354": " Get",
  "3355": " Stay",
  "3356": " shovels",
  "3357": " plast",
  "3358": " plastic",
  "3359": " rubb",
  "3360": " rubber",
  "3361": " neighb",
  "3362": " neighbor",
  "3363": " bone",
  "3364": " grabs",
  "3365": " yells",
  "3366": " eats",
  "3367": " during",
  "3368": " tails",
  "3369": " pudd",
  "3370": " puddle",
  "3371": " mix",
  "3372": " licking",
  "3373": "vroom",
  "3374": " vroom",
  "3375": " rainb",
  "3376": " rainbow",
  "3377": " ze",
  "3378": " zeb",
  "3379": " zebra",
  "3380": " ele",
  "3381": " elep",
  "3382": " eleph",
  "3383": " elephant",
  "3384": "Ah",
  "3385": "-ch",
  "3386": "-choo",
  "3387": " sneezed",
  "3388": " Are",
  "3389": " U",
  "3390": " Under",
  "3391": " heal",
  "3392": " cheap",
  "3393": " ord",
  "3394": " ordin",
  "3395": " ordinary",
  "3396": " splashing",
  "3397": "\"Bye",
  "3398": " change",
  "3399": " provide",
  "3400": " trusted",
  "3401": " hoping",
  "3402": " provided",
  "3403": " yes",
  "3404": " means",
  "3405": " row",
  "3406": " lie",
  "3407": "?\n",
  "3408": " follows",
  "3409": " Inside",
  "3410": " scarves",
  "3411": " glo",
  "3412": " gloves",
  "3413": " shirts",
  "3414": " pant",
  "3415": " pants",
  "3416": " skirt",
  "3417": " skirts",
  "3418": " sock",
  "3419": " socks",
  "3420": " wraps",
  "3421": " funny",
  "3422": " pos",
  "3423": " poses",
  "3424": "\"The",
  "3425": "\"These",
  "3426": " ph",
  "3427": " phot",
  "3428": " photog",
  "3429": " photogra",
  "3430": " photograp",
  "3431": " photographer",
  "3432": " these",
  "3433": " stand",
  "3434": " prop",
  "3435": " props",
  "3436": "\"R",
  "3437": "\"Re",
  "3438": "\"Ready",
  "3439": " Sm",
  "3440": " Smile",
  "3441": " click",
  "3442": " clicks",
  "3443": " impat",
  "3444": " impatient",
  "3445": " sew",
  "3446": " sewed",
  "3447": " cloud",
  "3448": " wing",
  "3449": " dip",
  "3450": " forgott",
  "3451": " forgotten",
  "3452": " keeper",
  "3453": " storekeeper",
  "3454": " sadly",
  "3455": " trud",
  "3456": " trudged",
  "3457": " Ne",
  "3458": " Never",
  "3459": " fields",
  "3460": " blowing",
  "3461": " ext",
  "3462": " extra",
  "3463": " saying",
  "3464": "excuse",
  "3465": " ple",
  "3466": " pleas",
  "3467": " pleased",
  "3468": " oink",
  "3469": "Near",
  "3470": " sounded",
  "3471": " answer",
  "3472": " short",
  "3473": "Fluffy",
  "3474": " ret",
  "3475": " retur",
  "3476": " return",
  "3477": " itches",
  "3478": " wears",
  "3479": " rides",
  "3480": " sheep",
  "3481": " peek",
  "3482": " forehead",
  "3483": "\"Who",
  "3484": "\"Star",
  "3485": "Gra",
  "3486": "Grand",
  "3487": "Grandpa",
  "3488": " flat",
  "3489": " mun",
  "3490": " munches",
  "3491": " nu",
  "3492": " nuzzle",
  "3493": " nuzzles",
  "3494": " snort",
  "3495": " mane",
  "3496": " stroke",
  "3497": " For",
  "3498": " Come",
  "3499": " eg",
  "3500": " egg",
  "3501": " eggs",
  "3502": " chicken",
  "3503": " coop",
  "3504": " seek",
  "3505": " woke",
  "3506": "Benny",
  "3507": " prep",
  "3508": " prepare",
  "3509": "To",
  "3510": "Today",
  "3511": " dreaming",
  "3512": " wake",
  "3513": " early",
  "3514": "Bye",
  "3515": " obed",
  "3516": " obedient",
  "3517": " goes",
  "3518": " cri",
  "3519": " cries",
  "3520": " wants",
  "3521": " fixing",
  "3522": " pole",
  "3523": " walks",
  "3524": " polit",
  "3525": " politely",
  "3526": "\"E",
  "3527": "\"Ex",
  "3528": "\"Excuse",
  "3529": " kites",
  "3530": " finish",
  "3531": " finis",
  "3532": " finishes",
  "3533": " climbs",
  "3534": " reaches",
  "3535": " untang",
  "3536": " untangles",
  "3537": " branches",
  "3538": "\"Here",
  "3539": "Your",
  "3540": " har",
  "3541": " harsh",
  "3542": " thanks",
  "3543": " space",
  "3544": " seemed",
  "3545": " invite",
  "3546": " Tri",
  "3547": " Triangle",
  "3548": " Rect",
  "3549": " Rectangle",
  "3550": " O",
  "3551": " Ov",
  "3552": " Oval",
  "3553": " united",
  "3554": " frost",
  "3555": " frosting",
  "3556": " sprink",
  "3557": " sprinkles",
  "3558": " cakes",
  "3559": " invited",
  "3560": " presch",
  "3561": " preschool",
  "3562": " present",
  "3563": " presents",
  "3564": " six",
  "3565": " wish",
  "3566": " snug",
  "3567": " snugly",
  "3568": " ceil",
  "3569": " ceiling",
  "3570": " throws",
  "3571": " tuck",
  "3572": " tucked",
  "3573": "\"K",
  "3574": "\"King",
  "3575": " showing",
  "3576": " beha",
  "3577": " behaved",
  "3578": " bring",
  "3579": " If",
  "3580": " wee",
  "3581": " week",
  "3582": " punished",
  "3583": "OK",
  "3584": " couch",
  "3585": " glu",
  "3586": " glued",
  "3587": " comb",
  "3588": " combed",
  "3589": " handful",
  "3590": " feeding",
  "3591": " snat",
  "3592": " snatched",
  "3593": " smelly",
  "3594": " sick",
  "3595": "\"Mia",
  "3596": " fault",
  "3597": " blushed",
  "3598": " fingers",
  "3599": "'.\"\n",
  "3600": " married",
  "3601": " places",
  "3602": " horn",
  "3603": " ignit",
  "3604": " ignition",
  "3605": "\"Sh",
  "3606": "\"Should",
  "3607": " crash",
  "3608": " steer",
  "3609": " moves",
  "3610": " honk",
  "3611": " honks",
  "3612": " road",
  "3613": " sire",
  "3614": " siren",
  "3615": " sirens",
  "3616": " shouts",
  "3617": " notice",
  "3618": " trou",
  "3619": " trouble",
  "3620": " fastest",
  "3621": " compet",
  "3622": " competit",
  "3623": " competitive",
  "3624": " winning",
  "3625": " ski",
  "3626": " skipped",
  "3627": "Where",
  "3628": " dro",
  "3629": " drove",
  "3630": " Ev",
  "3631": " Eventually",
  "3632": " parked",
  "3633": "Wel",
  "3634": "Welcome",
  "3635": " visiting",
  "3636": " doct",
  "3637": " doctor",
  "3638": " taken",
  "3639": " sett",
  "3640": " settled",
  "3641": " settle",
  "3642": " sen",
  "3643": " sense",
  "3644": " rust",
  "3645": " rustling",
  "3646": " ears",
  "3647": " gain",
  "3648": " gained",
  "3649": " exper",
  "3650": " experi",
  "3651": " experience",
  "3652": " jams",
  "3653": " paid",
  "3654": " treat",
  "3655": " lay",
  "3656": " falling",
  "3657": " examine",
  "3658": " roll",
  "3659": " rolled",
  "3660": "Bella",
  "3661": " rose",
  "3662": " ones",
  "3663": " cups",
  "3664": " rub",
  "3665": " rubbed",
  "3666": " sweeties",
  "3667": "\"Of",
  "3668": " chasing",
  "3669": " completely",
  "3670": " spotted",
  "3671": " lit",
  "3672": " excla",
  "3673": " exclaim",
  "3674": " exclaimed",
  "3675": " examin",
  "3676": " examined",
  "3677": " det",
  "3678": " detail",
  "3679": " reluc",
  "3680": " reluct",
  "3681": " reluctant",
  "3682": " reluctantly",
  "3683": " monum",
  "3684": " monument",
  "3685": " zooming",
  "3686": " pile",
  "3687": " floors",
  "3688": " spun",
  "3689": " di",
  "3690": " dizz",
  "3691": " dizzy",
  "3692": " destroyed",
  "3693": " interesting",
  "3694": " wip",
  "3695": " wipe",
  "3696": " charming",
  "3697": " worse",
  "3698": "Bew",
  "3699": "Beware",
  "3700": " wondered",
  "3701": "Beh",
  "3702": "Behind",
  "3703": " check",
  "3704": " peeked",
  "3705": " Without",
  "3706": " feather",
  "3707": " feathers",
  "3708": " terrif",
  "3709": " terrified",
  "3710": " None",
  "3711": " cheer",
  "3712": "Sally",
  "3713": " While",
  "3714": " owner",
  "3715": " spend",
  "3716": " wings",
  "3717": " hal",
  "3718": " halo",
  "3719": "Whe",
  "3720": "Whee",
  "3721": " q",
  "3722": " que",
  "3723": " queen",
  "3724": " shock",
  "3725": " shocked",
  "3726": " saving",
  "3727": " slowly",
  "3728": "Hold",
  "3729": " bigg",
  "3730": " biggest",
  "3731": "-l",
  "3732": "-loo",
  "3733": "-looking",
  "3734": " tasted",
  "3735": " covered",
  "3736": " buil",
  "3737": " built",
  "3738": " chim",
  "3739": " chimney",
  "3740": " neare",
  "3741": " nearest",
  "3742": " weak",
  "3743": " nob",
  "3744": " nobo",
  "3745": " nobody",
  "3746": " hopeful",
  "3747": " musta",
  "3748": " mustac",
  "3749": " mustache",
  "3750": " searched",
  "3751": " Your",
  "3752": " Jul",
  "3753": " Julie",
  "3754": " patted",
  "3755": " towers",
  "3756": " wall",
  "3757": " walls",
  "3758": " windows",
  "3759": " cous",
  "3760": " cousin",
  "3761": " designed",
  "3762": " Go",
  "3763": " ups",
  "3764": " upset",
  "3765": "St",
  "3766": "Stop",
  "3767": " nicely",
  "3768": " respec",
  "3769": " respect",
  "3770": " sent",
  "3771": " unc",
  "3772": " uncom",
  "3773": " uncomf",
  "3774": " uncomfort",
  "3775": " uncomfortable",
  "3776": " jo",
  "3777": " jokes",
  "3778": " poe",
  "3779": " poems",
  "3780": " notebooks",
  "3781": " busy",
  "3782": " writing",
  "3783": " anyone",
  "3784": " sniff",
  "3785": " sniffed",
  "3786": "Bessie",
  "3787": " bitten",
  "3788": " bite",
  "3789": "Ouch",
  "3790": " taps",
  "3791": " shelves",
  "3792": " counter",
  "3793": " choice",
  "3794": " golden",
  "3795": " gro",
  "3796": " grocer",
  "3797": " grocery",
  "3798": " bedroom",
  "3799": " trem",
  "3800": " tremble",
  "3801": "Mommy",
  "3802": " sobb",
  "3803": " sobbing",
  "3804": " hood",
  "3805": " hooded",
  "3806": " ner",
  "3807": " nerv",
  "3808": " nervous",
  "3809": " nervously",
  "3810": " offered",
  "3811": " tremb",
  "3812": " trembling",
  "3813": " ok",
  "3814": " alr",
  "3815": " alright",
  "3816": " kindn",
  "3817": " kindness",
  "3818": " comfor",
  "3819": " comforted",
  "3820": " rocky",
  "3821": " nat",
  "3822": " nature",
  "3823": " sudden",
  "3824": " fer",
  "3825": " fero",
  "3826": " feroc",
  "3827": " ferocious",
  "3828": " roaring",
  "3829": " growling",
  "3830": " attack",
  "3831": " av",
  "3832": " avail",
  "3833": " available",
  "3834": "If",
  "3835": " easi",
  "3836": " easier",
  "3837": " faced",
  "3838": " situ",
  "3839": " situation",
  "3840": " scattering",
  "3841": " plants",
  "3842": " resist",
  "3843": " slipp",
  "3844": " slipper",
  "3845": " slippery",
  "3846": "Next"
}